#version: 0.2
Ġ t
h e
Ġ a
o n
i n
Ġt he
r e
a t
Ġ o
e n
e r
Ġ ,
Ġ .
i on
Ġ s
ä ¸
i t
Ġo f
ï ¼
n d
Ġ ï¼
o r
ç ļ
e s
Ġ c
çļ Ħ
a l
ä º
Ġ p
Ġ å
e d
ã Ģ
Ġ w
Ġ in
Ġ ãĢ
i s
Ġï¼ Į
o u
ä »
a n
æ ľ
Ġa nd
å ħ
Ġt o
å ı
Ġ f
ä ½
in g
Ġ æ
Ġ b
å ®
a r
è ¿
en t
å Ī
at ion
ĠãĢ Ĥ
i c
ä ¼
è ®
Ġ m
å Ľ
Ġ re
å Ĳ
Ġ d
å Ĭ
o m
Ĵ Į
e c
ç »
l e
å ĴĮ
Ġt h
Ġ I
å ľ
v e
ä¼ ļ
r o
å ¤
Ġ C
åĽ ½
Ġ h
æ ĸ
Ġ S
æ ĺ
a s
Ī ĳ
Ġ A
è ¯
i l
ä ¹
m ent
ä¸ Ģ
Ġ T
è ¡
Ġ n
å ĳ
Ġ -
Ġ ç
Ġ '
å ¹
s t
æľ ī
Ġ e
æ Ŀ
c e
å °
Ġf or
å Ĩ
r a
æĺ ¯
Ġ on
åľ ¨
u t
ĠãĢ ģ
r i
äº º
Ġ l
ç Ķ
Ġ g
æ ī
Ġb e
äº Ĩ
o l
é ĩ
Ġth at
ä¸ į
Ġc on
æ Ĺ
i d
è® ®
l y
è¿ Ļ
i m
å º
Ġ y
å į
u r
Ġ è
o t
è¡ Į
Ġp ro
æ Ķ
e t
Ġæ Īĳ
Ġ 2
ä½ ł
c t
æ ³
Ġ it
æ Ń
ĠT he
ä» ¥
s e
é Ĺ
Ġ 1
ä¸ º
Ġ P
æ Ī
o p
å ĩ
Ġ M
g h
é ¢
t er
åĳ ĺ
v er
é Ļ
Ġ (
Ġy ou
å ¾
or t
å ¯
Ġ )
Ġ is
å ·
Ġ u
å¹ ´
Ġa s
å ±
Ġ N
ä ¿
u l
æ Ĭ
Ġ G
ä» ¬
i r
¬ ¬
it h
é Ģ
ation s
¦ ģ
Ġ W
ç Ľ
ec t
è §
o w
at e
ä½ ľ
a d
ä» ĸ
om m
å ¼
é Ŀ
Ġw ith
0 0
l d
ç º
Ġ /
re s
è ´
Ġs t
ĥ ½
Ġd e
æ Ģ
l l
è ¦ģ
it y
æ³ ķ
Ġ U
æ ĭ
Ġ R
ä¸ ª
Ġs u
è µ
Ġ D
åĲ Ī
i es
ç §
es s
æ ł
Ġ ?
p ort
æĸ ¹
Ġ H
åı ĳ
he r
å® ļ
Ġw e
å ¸
e m
ä¸ Ń
a y
å ¥
i ve
æ ı
Ġb y
æ ŀ
gh t
æ ķ
a b
äº İ
Ġw h
å® ¶
n t
å Į
i al
c h
äº ĭ
f f
æ Īĳ
é ¡
ar t
es t
åħ ³
u m
ä ¾
Ġo r
â Ģ
ç Ĳ
Ġre s
æ Į
Ġa n
åĪ °
Ġ2 00
Ġ E
å¯ ¹
o c
è Ģ
Ġ O
æ ´
Ġ B
ç ī
er s
ģ Ķ
en d
åħ ¶
is t
ation al
æı Ĳ
Ġe x
å Ń
å Ł
a in
q u
è¿ Ľ
Ġ F
ç ¬¬
Ġm e
ç «
i v
è ĥ½
i f
åĩ º
Ġa re
æī Ģ
Ġ he
ä¸ »
il l
e e
åľ °
ion s
Ġ é
æ ¬
ou ld
åĬ ¨
ve l
å¤ §
a m
Ġn ot
Ġ ä½ł
æ ĥ
Ġh a
æ °
a k
an t
å ¿
çĲ Ĩ
u d
å §
i z
o d
è ĩ
Ġa t
å ½
æ İ
ĠS t
ĠI n
æ Ħ
r om
åı Ĭ
n it
ç İ
i g
æĶ ¿
Ġ im
åĨ ³
g e
Ġ âĢ
Ġw as
ä¸ Ĭ
a c
é ģ
Ġ v
æĿ ĥ
Ġ L
ç» Ħ
p p
Ġs h
æ ¡
ar y
åı ¯
o s
çĶ Ł
ter n
çĶ ¨
Ġa d
æĿ ¥
u s
éĹ ®
an ce
Ķ åĳĺ
a nd
Ġit s
ä¸ İ
u n
æ ²
Ġ le
æĪ Ĳ
u st
Ķåĳĺ ä¼ļ
t h
é¢ ĺ
ĠC omm
çº ¦
Ġp art
Ġ Y
å± ķ
i e
è °
ou nt
åĽ½ å®¶
Ġcon t
Ġå ľ
o re
åĪ ©
Ġn e
è¿ ĩ
ĠU nit
ä¼ļ è®®
vel op
ç» ı
Ġ ;
it t
æĹ ¥
b er
è ģĶ
Ġa l
å· ¥
ĠUnit ed
æľ Ī
Ġha ve
åħ ¨
Ġin c
ou r
åĬ Ľ
re n
æ µ
Ġc om
æĹ ¶
t her
å İ
Ġ en
ĥ ¨
Ġth is
è¡ ¨
or k
äº Ľ
Ġa ll
Ġa g
éĻ ħ
er al
åĬ ł
u re
å ¦
r ou
Ġ è¿Ļ
at ed
é ĥ¨
Ġ !
e l
ç ½
Ġf rom
al l
Ġåľ ¨
o ver
ç Ń
c c
éĿ ¢
tern ational
Ł ¥
ar d
a p
éĩ į
Ġ k
Ġå ħ
at es
Ġï¼ Ľ
g ra
ä¿ Ŀ
e p
i a
Ġï¼ ī
éĹ® é¢ĺ
Ġ ri
ĠC on
æ¡ Ī
i p
åĳ Ĭ
Ġim p
ĠãĢ ĭ
l ic
æĬ ¥
ĠN ations
æľ º
Ġri ght
Ġc h
é¡ ¹
ment s
ä¸ ĭ
is s
è ¾
Ġre g
en eral
æĢ §
Ġ J
åĬ ¡
ic h
å¾ Ĺ
Ġde velop
åĪ Ĩ
or m
Ġå ı
re d
å ĵ
r u
Ġï¼ Ī
om e
Ġï¼ Ł
Ġ 3
ic e
å Ģ
Ġre c
ç ®
Ġ :
ç ¤
ĠT h
åĪ ¶
Ġwh ich
Ġthe ir
æ ¯
ic al
åĲĪ åĽ½
Ġa ct
å§ Ķåĳĺä¼ļ
Ġ j
Ġ 5
æ° ĳ
ut ion
Ġin t
åĲ Ħ
Ġa pp
åħ ¬
i ght
Ġc ount
ç ¨
Ġpro v
é ĺ
ĠS ec
çī ¹
or d
ab le
å® ŀ
ĠI t
æ į
res s
Ġd is
ĠãĢ Ĭ
e a
å »
Ġw ill
Ġh as
å¤ ļ
v ent
åº Ķ
Ġs p
æĦ ı
an s
ĠA s
å·¥ ä½ľ
ul t
ä» »
Ġc omm
å ģ
f orm
çĽ ®
ĠG eneral
ç ķ
um an
éĿ ŀ
it ies
è¯ ¥
nd er
å ī
u b
åĬ ©
m e
Ġd o
æĸ ¯
over n
Ġg o
èµ Ħ
r y
åĪ «
Ġre port
Ġ1 9
å° Ĩ
itt ee
é ķ
Ġex p
ä¹ Ī
re t
éĹ ´
ou n
æĬ¥ åĳĬ
Ġa r
Ġcon s
æĿ ¡
l ud
åĽ½ éĻħ
i b
æľ Ł
ĠY ou
u c
Ġç ¬¬
ĠW e
Ġ ä»¥
ou s
Ġcom p
åıĳ å±ķ
ĠSt ates
Ġå ¹
Ġa b
å° ±
on s
äº ļ
Ġc o
éĢ ļ
Ġo ut
Ġp er
ä¹ ¦
ĠComm ittee
è¯ ´
Ġbe en
æľ ¬
Ġin ternational
åĨ ħ
Ġas s
Ĥ £
Ġw ork
åĲ Į
s o
Ġa cc
Ġ ä½
Ġ. .
éķ ¿
o se
le ment
ç ľ
åĲ İ
Ġu nder
å» º
Ġe ff
ion al
Ġå Ľ
Ġ.. .
è¿ ĺ
m in
g an
æ ±
Ġ 4
Ġp l
å¼ Ģ
id e
ä¾ Ľ
Ġ r
Ġo ther
Ġ ä»ĸ
æĮ ģ
iss ion
ä¹ ĭ
Ġu p
Ġh ad
Ġå °
en ce
å® ī
c es
c il
å¥ ³
ak e
2 00
ri es
Ġinc lud
ç§ į
Ġal so
å ¢
ĠC h
ĠW h
Ġå ®
Ġw ould
ä¸Ģ ä¸ª
Ġres ol
åĮ º
il d
p port
çİ °
ĠC oun
ç» ĩ
he n
æĥ ħ
Ġp re
gra m
ĠæĪĳ ä»¬
on g
ç« ĭ
Ġsh ould
ç»Ħ ç»ĩ
ou t
Ġwe re
ç¨ ĭ
ĠH e
Ġå¹ ¶
er ation
Ġï¼ ļ
Ġc an
as t
ä» £
gan iz
Ġsu b
ä½ ĵ
ĠCoun cil
éģ ĵ
res ent
ä» ¶
e ar
u e
å¹ ³
re at
æĸ ĩ
o g
æľ Ģ
at ive
er v
ç ¼
l o
ä¹ Ł
a w
æ ģ
Ġm an
è§ Ħ
ur ity
Ġres p
ç ¡
em ber
å Ŀ
ĠP ro
åı ĸ
Ġ 6
ig n
a ge
æĪ ĸ
k e
åŁ º
ĠâĢ ľ
i an
Ġthe re
è® ¡
Ġs ec
éĩ Į
m b
i re
æĺ İ
Ġpart ic
å¤ Ħ
Ġ K
f e
èĩ ª
Ġp ol
ä¿ ¡
n ow
ç ³
ub lic
èĢ ħ
Ġf in
a ct
Ġ ä¸į
overn ment
åº ľ
o st
è® ¤
Ġd ec
ĠU N
åį ı
Ġre l
å¤ ĸ
Ġcount ries
is h
æĭ ī
Ġcon c
èģĶ åĲĪåĽ½
Ġt ra
ç ¾
re e
Ġre qu
åĨ µ
Ġh uman
å½ ĵ
r ic
æŀ Ħ
e x
æ¬ ¡
ol l
as e
ç¤ ¾
p t
æĸ¹ éĿ¢
om en
éĩ ĳ
Ġyou r
on om
æŃ £
Ġdevelop ment
on e
åī į
Ġne ed
æ Ľ
ec ial
Ġä½ Ĩ
Ġright s
ç³ »
Ġk now
Ġimp lement
è° ĥ
ĠN o
è ½
Ġin d
an c
æıĲ ä¾Ľ
Ġthe y
åı Ĺ
ec h
ct ion
æĸ ½
Ġs o
p h
æŃ ¤
ĠSec ret
Ġu n
æŀ ľ
Ġm y
åĽ ¢
if ic
d u
ä½ ¿
Ġo b
Ġresol ution
ä¹ ī
Ġl i
æ´ »
Ġa m
æĶ¿ åºľ
Ġsu pport
Ġof f
ç Ĥ
et ing
æ ®
ri b
ĠR e
æį ®
Ġin form
Ġt er
å° Ķ
o k
å¥ ½
j ect
ä¸ ļ
Ġc l
vent ion
åŁ Ł
ie w
ç» Ń
Ġ) ,
id ent
å ķ
Ġpro c
é ľ
u al
u res
è® ¾
ar a
æĶ ¯
Ġre p
Ġan y
æ² ¡
Ġad d
åħ ±
ect ion
Ġ19 9
ä» Ģ
ac k
« ĺ
im e
Ġon e
è¡Į åĬ¨
er t
ĠâĢ Ŀ
se mb
ä»£ è¡¨
m s
Ġt r
ç ©
Ġthe m
ç® ¡
f t
Ġå Ĳ
Ġpro gram
en s
Ħ ¶
rou p
é ĥ½
ess ion
åŃ Ĳ
semb ly
åº ¦
il ity
in e
å¼ º
fe ren
ad e
ç Ł¥
or s
Ġå ¥
e op
äº ¤
Ġsu ch
åĮ ĸ
a g
ul ar
æĭ ¬
or y
ç¡ ®
Ġor ganiz
ver y
é¢ Ĩ
Ġj ust
Ġin v
è¯ ·
Ġinclud ing
æĸ °
ĠAs sembly
Ġwh o
Ġå ¤
er n
é «ĺ
Ġbe t
ħ æĭ¬
ab l
a re
åĨ³ è®®
ĠComm ission
v en
Ħ ¿
ea ce
è ¨
Ġ est
Ġw omen
æķ °
Ġp ers
åħ Ī
Ġm ore
Ġy ear
§ è¡Į
Ġag ain
on d
åħ ¥
Ġn o
éĢļ è¿ĩ
at ing
æł ·
Ġu s
ĠA f
å® ¡
u nd
onom ic
é ļ
s u
st it
å· ²
Ġme eting
æľī åħ³
it ion
Ġå į
Ġo p
ĠR ep
æĥħ åĨµ
ic es
åİ »
t ic
èĢ Į
ĠA d
y st
è§ £
he re
éľ Ģ
a ce
Ġn ational
æľº æŀĦ
Ġb ut
Ġli ke
ç¤¾ ä¼ļ
is ion
æ± Ĥ
ro p
i ous
Ġcont in
è® º
in t
è¿Ľ è¡Į
yst em
Ġs e
æµ İ
en c
Ġo ver
é Ľ
ĠD ec
Ġ V
éĩ ĩ
ĠSt ate
feren ce
åı ·
