#version: 0.2
Ġ t
h e
Ġ a
o n
i n
Ġt he
r e
a t
Ġ o
e n
e r
Ġ ,
Ġ .
i on
Ġ s
ä ¸
i t
Ġo f
ï ¼
n d
Ġ ï¼
o r
ç ļ
e s
Ġ c
çļ Ħ
a l
ä º
Ġ p
Ġ å
e d
ã Ģ
Ġ w
Ġ in
Ġ ãĢ
i s
Ġï¼ Į
o u
ä »
a n
æ ľ
Ġa nd
å ħ
Ġt o
å ı
Ġ f
ä ½
in g
Ġ æ
Ġ b
å ®
a r
è ¿
en t
å Ī
at ion
ĠãĢ Ĥ
i c
ä ¼
è ®
Ġ m
å Ľ
Ġ re
å Ĳ
Ġ d
å Ĭ
o m
ç »
e c
å Ĵ
l e
åĴ Į
Ġt h
Ġ I
å ľ
v e
ä¼ ļ
r o
å ¤
Ġ C
åĽ ½
Ġ h
æ ĸ
Ġ S
æ ĺ
a s
è ¯
Ġ A
ä ¹
i l
æ Ī
m ent
ä¸ Ģ
Ġ T
è ¡
Ġ n
å ĳ
Ġ -
Ġ ç
Ġ '
å ¹
s t
æľ ī
Ġ e
æ Ŀ
c e
å °
Ġf or
å Ĩ
r a
æĺ ¯
Ġ on
åľ ¨
u t
ĠãĢ ģ
r i
äº º
Ġ l
ç Ķ
Ġ g
æ ī
Ġb e
äº Ĩ
o l
é ĩ
Ġth at
ä¸ į
Ġc on
æ Ĺ
i d
è® ®
l y
Ġæ Ī
i m
è¿ Ļ
å º
Ġ y
u r
å į
o t
Ġ è
Ġp ro
è¡ Į
e t
æ Ķ
Ġ 2
ĠæĪ ĳ
c t
ä½ ł
æ ³
Ġ it
ĠT he
æ Ń
s e
ä» ¥
Ġ 1
é Ĺ
Ġ P
ä¸ º
o p
å ĩ
Ġ M
g h
é ¢
t er
åĳ ĺ
v er
é Ļ
Ġ (
Ġy ou
å ¾
or t
å ¯
Ġ )
Ġ is
å ·
Ġ u
å¹ ´
Ġa s
å ±
Ġ N
ä ¿
u l
æ Ĭ
Ġ G
ä» ¬
i r
é Ģ
it h
ç Ľ
ation s
è §
Ġ W
ä½ ľ
ec t
ä» ĸ
o w
å ¼
at e
é Ŀ
a d
om m
0 0
ç º
è ´
Ġw ith
l d
è ¦
Ġ /
re s
æ Ģ
è¦ ģ
Ġs t
æ³ ķ
Ġd e
l l
æ ĭ
it y
ä¸ ª
Ġ U
è µ
Ġ R
åĲ Ī
Ġs u
ç §
Ġ D
æ ł
i es
æĸ ¹
es s
åı ĳ
Ġ ?
p ort
å® ļ
Ġ H
å ¸
ä¸ Ń
he r
Ġw e
å ¥
e m
æ ı
a y
æ ŀ
i ve
æ ķ
Ġb y
äº İ
gh t
å® ¶
a b
å Į
Ġw h
äº ĭ
n t
æĪ ĳ
i al
é ĥ
c h
é ¡
f f
åħ ³
ar t
ä ¾
es t
è ĥ
u m
â Ģ
ç Ĳ
Ġo r
æ Į
Ġre s
åĪ °
Ġa n
å¯ ¹
Ġ2 00
Ġ E
ç ¬
o c
è Ģ
Ġ O
Ġ B
æ ´
er s
ç ī
en d
åħ ¶
is t
æı Ĳ
ation al
å Ń
Ġe x
å Ł
a in
è ģ
q u
è¿ Ľ
Ġ F
ç¬ ¬
Ġm e
i v
ç «
i f
èĥ ½
Ġa re
åĩ º
Ġ he
æī Ģ
il l
ä¸ »
e e
åľ °
ion s
æ ¬
ou ld
åĬ ¨
ve l
å¤ §
a m
Ġ ä½ł
Ġn ot
æ ĥ
Ġh a
æ °
a k
å ¿
an t
çĲ Ĩ
u d
å §
i z
è ĩ
o d
å ½
Ġa t
æ İ
ĠS t
æ Ħ
ĠI n
r om
åı Ĭ
n it
é ģ
i g
ç İ
Ġ im
æĶ ¿
g e
åĨ ³
Ġ âĢ
Ġw as
a c
ä¸ Ĭ
Ġ v
Ġ é
Ġ L
æĿ ĥ
p p
ç» Ħ
Ġs h
æ ¡
ar y
o s
åı ¯
çĶ Ł
ter n
çĶ ¨
Ġa d
u s
æĿ ¥
an ce
éĹ ®
a nd
ä¸ İ
Ġit s
æ ²
u n
æĪ Ĳ
Ġ le
åĳĺ ä¼ļ
u st
t h
é¢ ĺ
ĠC omm
çº ¦
Ġp art
å± ķ
Ġ Y
è °
i e
åĽ½ å®¶
ou nt
Ġcon t
Ġå ľ
o re
åĪ ©
Ġn e
è¿ ĩ
ĠU nit
ä¼ļ è®®
vel op
ç» ı
Ġ ;
æĹ ¥
it t
èģ Ķ
b er
å· ¥
Ġa l
æľ Ī
ĠUnit ed
Ġha ve
åħ ¨
Ġin c
åĬ Ľ
ou r
æ µ
re n
æĹ ¶
Ġc om
å İ
t her
éĥ ¨
Ġ en
è¡ ¨
Ġth is
or k
äº Ľ
Ġa ll
éĻ ħ
Ġa g
åĬ ł
er al
u re
å ¦
Ġ è¿Ļ
r ou
at ed
ç ½
Ġ !
Ġåľ ¨
e l
ç Ń
Ġf rom
al l
éĿ ¢
o ver
éĩ į
c c
Ġå ħ
tern ational
Ġï¼ Ľ
ar d
a p
ä¿ Ŀ
Ġ k
Ġï¼ ī
at es
éĹ® é¢ĺ
g ra
æ¡ Ī
e p
i a
åĳ Ĭ
Ġ ri
ĠãĢ ĭ
ĠC on
æĬ ¥
i p
æľ º
Ġim p
é¡ ¹
l ic
ä¸ ĭ
ĠN ations
Ġri ght
å§ Ķ
Ġc h
è ¾
ment s
æĢ §
is s
Ġre g
åĬ ¡
en eral
å¾ Ĺ
Ġ J
åĪ Ĩ
ic h
Ġå ı
Ġde velop
å ĵ
or m
Ġï¼ Ī
re d
Ġï¼ Ł
å Ģ
r u
ç ®
om e
ç ¤
Ġ 3
ic e
Ġre c
åĪ ¶
Ġ :
æ ¯
ĠT h
åĲĪ åĽ½
Ġwh ich
å§Ķ åĳĺä¼ļ
Ġthe ir
ic al
æ° ĳ
Ġa ct
åĲ Ħ
Ġ j
Ġ 5
ut ion
åħ ¬
Ġin t
ç ¨
Ġa pp
é ĺ
i ght
Ġc ount
çī ¹
Ġpro v
å® ŀ
ĠS ec
or d
æ į
ab le
ĠãĢ Ĭ
ĠI t
res s
å »
Ġd is
å¤ ļ
e a
åº Ķ
Ġw ill
Ġh as
æĦ ı
v ent
å·¥ ä½ľ
Ġs p
ä» »
an s
å ģ
ĠA s
çĽ ®
ul t
ç ķ
Ġc omm
éĿ ŀ
f orm
è¯ ¥
ĠG eneral
um an
å ī
it ies
åĬ ©
nd er
æĸ ¯
u b
m e
èµ Ħ
Ġd o
åĪ «
over n
å° Ĩ
Ġg o
r y
é ķ
Ġre port
ä¹ Ī
Ġ1 9
éĹ ´
itt ee
Ġex p
Ġç ¬
re t
æĬ¥ åĳĬ
ou n
æĿ ¡
Ġa r
åĽ½ éĻħ
Ġcon s
æľ Ł
l ud
i b
Ġç¬ ¬
ĠY ou
Ġ ä»¥
u c
ĠW e
åıĳ å±ķ
ou s
Ġå ¹
Ġcom p
å° ±
ĠSt ates
äº ļ
Ġa b
on s
éĢ ļ
Ġc o
ä¹ ¦
Ġo ut
è¯ ´
Ġp er
æľ ¬
ĠComm ittee
åĨ ħ
Ġbe en
Ġin ternational
åĲ Į
Ġas s
Ġ ä½
Ġw ork
éķ ¿
s o
ç ľ
Ġa cc
åĲ İ
Ġ. .
o se
å» º
le ment
Ġå Ľ
Ġu nder
è¿ ĺ
Ġe ff
æ ±
ion al
å¼ Ģ
Ġ.. .
m in
ä¾ Ľ
g an
Ġ 4
Ġp l
Ġ ä»ĸ
id e
æĮ ģ
Ġ r
ä¹ ĭ
Ġo ther
Ġå °
iss ion
å® ī
Ġu p
Ġh ad
å¥ ³
en ce
2 00
c es
c il
ç§ į
ak e
å ¢
ri es
Ġå ®
Ġinc lud
ä¸Ģ ä¸ª
Ġal so
ĠC h
åĮ º
ĠW h
Ġw ould
çİ °
Ġres ol
ç» ĩ
il d
p port
æĥ ħ
ĠC oun
ĠæĪĳ ä»¬
he n
ç« ĭ
Ġp re
ç»Ħ ç»ĩ
gra m
on g
ç¨ ĭ
Ġsh ould
Ġå¹ ¶
ou t
Ġï¼ ļ
Ġwe re
éģ ĵ
ĠH e
er ation
ä» £
Ġc an
ä½ ĵ
as t
gan iz
æ Ł
Ġsu b
ä» ¶
ĠCoun cil
res ent
å¹ ³
e ar
æĸ ĩ
u e
æľ Ģ
re at
o g
ç ¼
at ive
ä¹ Ł
er v
æ ģ
l o
a w
è§ Ħ
Ġm an
ç ¡
ur ity
å Ŀ
Ġres p
åı ĸ
em ber
ĠP ro
æĪ ĸ
Ġ 6
ig n
ç Ł
a ge
åŁ º
k e
ĠâĢ ľ
i an
è® ¡
Ġthe re
éĩ Į
Ġs ec
m b
æĺ İ
i re
å¤ Ħ
Ġpart ic
èĩ ª
Ġ K
f e
é Ĥ
Ġp ol
ä¿ ¡
n ow
ç ³
ub lic
Ġf in
èĢ ħ
a ct
Ġ ä¸į
overn ment
åº ľ
o st
Ġd ec
è® ¤
ĠU N
åį ı
Ġre l
å¤ ĸ
Ġcount ries
is h
æĭ ī
Ġcon c
èģĶ åĲĪåĽ½
Ġt ra
re e
ç ¾
Ġre qu
åĨ µ
Ġh uman
å½ ĵ
r ic
æŀ Ħ
e x
ol l
æ¬ ¡
as e
ç¤ ¾
p t
æĸ¹ éĿ¢
om en
Ġyou r
éĩ ĳ
on om
æŃ £
Ġdevelop ment
on e
åī į
Ġne ed
æ Ľ
ec ial
Ġä½ Ĩ
Ġright s
Ġk now
ç³ »
Ġimp lement
è° ĥ
ĠN o
Ġin d
éĥ ½
an c
è ½
Ġthe y
æıĲ ä¾Ľ
ec h
ct ion
åı Ĺ
Ġs o
æĸ ½
p h
ĠSec ret
æŃ ¤
Ġu n
Ġm y
if ic
æŀ ľ
d u
åĽ ¢
Ġo b
Ġresol ution
ä½ ¿
Ġl i
ä¹ ī
Ġa m
Ġsu pport
æ´ »
Ġof f
æĶ¿ åºľ
et ing
ç Ĥ
ri b
ĠR e
æ ®
Ġin form
Ġt er
æį ®
o k
å° Ķ
j ect
Ġc l
å¥ ½
vent ion
ä¸ ļ
ie w
åŁ Ł
Ġ) ,
id ent
ç» Ń
Ġpro c
å ķ
u al
u res
é ľ
ar a
è® ¾
Ġre p
Ġan y
æĶ ¯
Ġad d
ect ion
æ² ¡
Ġ19 9
åħ ±
ac k
im e
ä» Ģ
Ġon e
è¡Į åĬ¨
er t
ĠâĢ Ŀ
se mb
ä»£ è¡¨
m s
Ġt r
ç ©
Ġthe m
ç® ¡
f t
Ġpro gram
Ġå Ĳ
en s
åŃ Ĳ
rou p
åº ¦
ess ion
semb ly
å¼ º
il ity
çŁ ¥
in e
fe ren
Ġå ¥
ad e
äº ¤
or s
åĮ ĸ
e op
Ġsu ch
æĭ ¬
a g
é «
ul ar
or y
ç¡ ®
Ġor ganiz
é¢ Ĩ
ver y
Ġj ust
è¯ ·
Ġin v
Ġinclud ing
æĸ °
ĠAs sembly
Ġå ¤
Ġwh o
é« ĺ
er n
Ġbe t
åĨ³ è®®
ab l
a re
è ¨
ĠComm ission
æķ °
v en
ea ce
åħ Ī
Ġ est
åħ ¥
Ġw omen
éĢļ è¿ĩ
Ġp ers
Ġm ore
æł ·
Ġy ear
å® ¡
Ġag ain
on d
é ļ
Ġn o
å· ²
at ing
Ġu s
æľī åħ³
ĠA f
u nd
Ġå į
onom ic
æĥħ åĨµ
s u
st it
åİ »
Ġme eting
èĢ Į
it ion
è§ £
Ġo p
éľ Ģ
ĠR ep
ic es
æľº æŀĦ
t ic
ç¤¾ ä¼ļ
ĠA d
y st
æ± Ĥ
he re
a ce
è® º
Ġn ational
Ġb ut
è¿Ľ è¡Į
Ġli ke
is ion
æµ İ
ro p
i ous
é Ľ
Ġcont in
in t
éĩ ĩ
yst em
åı ·
Ġs e
en c
ç Ŀ
Ġo ver
ĠD ec
è ¢
Ġ V
ĠSt ate
åį ģ
