#version: 0.2
Ġ t
h e
Ġ a
o n
i n
Ġt he
r e
a t
Ġ o
e n
e r
Ġ ,
Ġ .
i on
Ġ s
0 0
Ġ /
Ġ 2
Ġ 1
Ġ -
Ġ )
Ġ (
Ġ2 00
2 00
Ġ 3
Ġ 5
Ġ A
Ġ ?
Ġ 4
9 9
. .
Ġ. ..
Ġ 6
Ġ C
1 2
Ġ S
1 0
a n
Â ·
Ġ Â·
Ġ 7
Ġ b
Ġ !
Ġ c
Ġ 8
Ġ I
Ġ "
Ġ 9
o r
o u
1 1
Ġ1 99
a r
1 99
a l
Ġ1 0
Ġ d
Ġ '
1 9
Ġ w
i s
Ġ E
Ġ M
Ġ1 9
i t
1 5
Ġ L
Ġ f
e s
Ġ P
2 0
Ġ B
Ġ m
Ġ D
Ġ %
Ġ p
3 0
Ġ200 1
Ġ T
Ġ h
i c
1 3
Ġ :
in g
1 4
n d
Ġ200 5
Ġ R
Ġ H
e d
1 8
Ġ l
o m
d d
Ġ 00
e l
Ġ1 2
Ġ200 0
Ġ2 0
1 6
1 7
a s
Ġ200 4
Ġ g
i l
Ġ1 5
200 4
Ġ200 3
Ġo f
200 0
Ġ200 2
Ġ y
Ġ1 3
Ġ W
200 5
Ġ200 7
200 2
200 6
a d
Ġ N
e t
Ġt o
Ġ [
2 5
Ġt h
ĠA dd
Ġ200 6
Ġy ou
Ġ F
Ġ e
Ġ1 6
Ġ in
Ġ G
200 3
Ġ1 8
a m
200 1
Ġ1 4
r o
en t
Ġ00 0
Ġ ]
u s
o l
2 3
Ġ1 7
u n
Ġ1 1
2 2
200 7
3 1
Ġa nd
e c
r i
5 0
Ġ J
Ġ O
200 8
Ġ2 4
o s
a c
a y
Ġ n
ĠC N
2 7
2 6
Ġ2 3
u t
at ion
2 8
2 1
Ġ5 8
2 4
Ġ200 8
Ġ2 6
o t
i m
l e
Ġ re
Ġ2 8
Ġ on
2 9
Ġ2 5
Ġ3 0
v e
i d
6 0
Ġ *
Ġ199 9
Ġ2 7
u r
o w
Ġ5 5
Ġ Y
8 0
Ġ5 9
Ġ K
f s
Ġ 0
Ġ2 9
Ġ2 1
t er
i g
Ġ5 7
Ġ6 2
Ġ6 0
199 9
4 0
Ġ5 6
h t
e v
a b
Ġ3 3
w w
Ġo r
Ġ6 3
Ġ2 2
i r
F F
Ġ U
c h
5 5
Ġ he
u l
Ġ200 9
a k
_ _
a h
Ġ19 8
Ġth at
Ġ4 0
u m
or d
7 3
Ġ3 4
Ġ3 9
an d
o d
i e
Ġ5 4
5 7
Ġw ww
o c
Ġ un
Ġ3 7
6 7
t e
Ġ {
s h
200 9
l y
Ġf or
Ġb e
Ġ6 1
19 8
Ġor g
Ġ it
Ġ3 5
Ġ199 8
Ġ4 5
v er
Ġ3 8
Ġ is
I I
Ġ5 0
Ġ4 7
ĠT he
3 5
ĠI n
Ġ j
a g
Ġ4 3
Ġ3 6
Ġ4 8
h at
Ġ k
m ent
Ð ¸
Ġf n
Ġ V
C C
ĠE S
9 0
5 6
Ġ4 4
Ġ X
5 8
199 8
Ġ3 2
s t
il l
Ġs t
o p
Ġh t
Ġ3 1
us t
ĠY ou
Ġd e
6 3
fs c
c e
4 8
Ġm e
u p
a p
ĠC O
Ġ ;
4 9
4 5
u b
ĠA l
i f
sh ad
ec t
b ord
an t
he r
6 2
ĠA C
Ġ5 1
Ġ199 7
l d
3 7
Ġ }
or t
el l
3 3
is t
e e
Ġ4 6
a H
5 9
Ġ #
7 7
ĠP ro
q u
ar t
Ġ4 2
bord 1
bord1 shad
1 00
i a
r a
5 3
Ġ- -
t p
5 4
Ġw e
Ã ©
6 1
Ġg o
es t
7 0
ĠR ev
om e
es s
/ /
Ġ Ð¸
re s
i k
Ġa l
Ġ: //
Ġ4 9
or r
i al
ac k
3 9
5 1
Ġ199 6
ĠC h
Ġd o
o k
199 7
ĠH e
it h
Ġth is
a v
199 6
Ġ5 3
re n
Ġ199 5
ĠN o
e p
c H
a w
Ġ1 00
4 6
199 0
it y
Ġ4 1
u c
o b
a ve
4 7
ou r
Ġa n
ĠC R
ri g
Ġ19 7
Ġ v
al l
Ġ5 00
ar d
4 1
Ġa s
Ġ5 2
r an
at e
Ġ6 7
in e
4 4
Ġ6 6
ter n
en d
20 10
199 5
Ġ) (
ation al
5 2
3 4
Ġc om
ig ht
e m
ĠS t
Ġ) ,
Ġm y
Ġht tp
o v
ĠM r
Ġ i
__ __
Ġw ith
n a
g e
Ġc an
Ġc on
Ġ6 8
o h
bord1shad 0
Ġyou r
t h
o re
e w
4 3
4 2
Ġ7 0
Ġ6 9
Ġ199 4
s e
f f
b er
* *
Ġw as
N F
3 8
3 6
Ġh ave
ĠX X
ĠA nd
Ġ7 8
u re
ĠI t
ou ld
FF FF
Ġ6 4
s on
in d
i p
A dd
3 2
r y
ic k
ar a
a in
S T
199 1
Ġa t
Ġ up
u d
ar y
Ġs h
Ġn ot
ĠC on
tern ational
c t
a re
Ġ8 0
Ġ7 3
fsc y
fsc x
e y
aH 00
aH00 fscx
4 aH00fscx
199 4
Ġk n
Ġa re
ĠC P
Ġ7 7
i ve
